  Parameter containing:
tensor([[[[ -78,    5, -113],
          [ -64,    7,   -1],
          [  82,  -48,   50]]],


        [[[ -84,   80,   42],
          [  75,  127,  -74],
          [ -24,  114,  -75]]],


        [[[-103,  -73, -109],
          [  66,  -61, -117],
          [  87,  -53,  -89]]],


        [[[  66,   49,  109],
          [ -96, -115,  -93],
          [ 106,   94,  -57]]]], dtype=torch.int32)
b2 05 8f c0 07 ff 52 d0 32 
ac 50 2a 4b 7f b6 e8 72 b5 
99 b7 93 42 c3 8b 57 cb a7 
42 31 6d a0 8d a3 6a 5e c7 
