  Parameter containing:
tensor([[[[ -28,  102,  -71],
          [ -33,   90,   68],
          [ -80,  -57,   47]]],


        [[[ 123,  -10,  -51],
          [  30, -110,  -78],
          [  48,   43,  -33]]],


        [[[  17, -111,  102],
          [ 123,   96,   51],
          [ 106,   -6,   -3]]],


        [[[ 111, -125,  -81],
          [ -83,   75,   93],
          [-115,  -19,  111]]]], dtype=torch.int32)
e4 66 b9 df 5a 44 b0 c7 2f 
7b f6 cd 1e 92 b2 30 2b df 
11 91 66 7b 60 33 6a fa fd 
6f 83 af ad 4b 5d 8d ed 6f 
