// weight size: 7 * 7 * 2 (r. c. kernel_cnt)
// for debug:
// tensor([[[[  40,  115,   45],
//           [ -17,   90, -122],
//           [  22,  117,  -73]]],
// 
// 
//         [[[  -2,   23,   72],
//           [  91,  120,  102],
//           [  88,  -10,  -60]]]], dtype=torch.int32)

@0
28 73 2d 
ef 5a 86 
16 75 b7 
@64
fe 17 48 5b 78 66 58 f6 c4 