[[45, 91, -97, -28, 86, 3, -62, -25, -78 ],
[36, -21, 119, 93, 84, 90, 108, 89, -99],
[-56, 109, 109, -45, 73, 112, 92, -76, 50 ],
[70, 82, 122, 105, -84, 27, -120, -94, -15]]

// w0:
2d 5b 9f e4 56 03 c2 e7 b2 
// w1:
24 eb 77 5d 54 5a 6c 59 9d 
// w2:
c8 6d 6d d3 49 70 5c b4 32 
// w3:
46 52 7a 69 ac 1b 88 a2 f1 