  Parameter containing:
tensor([[[[ -57,  -39, -105],
          [ 106,  -49,   55],
          [ 106,    2,   82]]],


        [[[  -6,   52,   67],
          [  93, -100,  118],
          [ -72,   -8,   60]]],


        [[[ -85,   79,    2],
          [ -56,   48,  -34],
          [  -3,   46,   49]]],


        [[[  84, -117,   14],
          [ -75, -120,  -71],
          [  32,  -39,  -77]]]], dtype=torch.int32)
c7 d9 97 6a cf 37 6a 02 52 
fa 34 43 5d 9c 76 b8 f8 3c 
ab 4f 02 c8 30 de fd 2e 31 
54 8b 0e b5 88 b9 20 d9 b3 
