// weight size: 7 * 7 * 2 (r. c. kernel_cnt)
// for debug:
 tensor([[[[ -17, -102,  -19],
           [  11,  -83,  -11],
           [ -10,   33,  -71]]],
// 
// 
//         [[[  62,  -60,  -31],
//           [ 122,  -68, -103],
//           [  -8,    7,   48]]]], dtype=torch.int32)

@0
ef 9a ed 0b ad f5 f6 21 b9
@64
3e c4 e1 7a bc 99 f8 07 30 