  Parameter containing:
tensor([[[[  -4,   48,  -99],
          [ 127,   28,  123],
          [-100, -119,  -28]]],


        [[[  84,  107,   55],
          [  14,   64,  116],
          [ -53,   91,   74]]],


        [[[ -46,  -72, -122],
          [  23,  110,   73],
          [  -8,   10,  -26]]],


        [[[ -58,  115, -114],
          [ 112,  -90,   13],
          [  73,  -59,  118]]]], dtype=torch.int32)
fc 30 9d 7f 1c 7b 9c 89 e4 
54 6b 37 0e 40 74 cb 5b 4a 
d2 b8 86 17 6e 49 f8 0a e6 
c6 73 8e 70 a6 0d 49 c5 76 
